fe 18 fe f8 13 13 fc 14 11 fb f8 22 fd ee 00 01 fd 02 0f 06 f2 f5 e7 fd df e3 f2 04 f1 12 1a fa f5 09 03 02 fd fa 0d 23 14 ef e0 fc 27 eb cc 0a
fe ef 30 0d 09 09 0a f3 18 0f ef ec 14 28 e0 f9 01 17 dd f1 0b f4 ed e8 02 f4 ef f2 11 f4 f7 20 d9 31 d4 d6 dd 40 fe fe ed 10 f5 05 c5 21 03 fa
e3 f5 ed e4 0f 11 16 1b 38 29 09 00 fd ed de e3 1e 06 0e f1 3a 14 fd f1 12 fa 02 14 e7 fa 04 2a 1c 28 3d 06 fe ee f6 f4 d0 f1 dd 02 00 fa 0c 10
cc f9 0f 1e f2 11 01 12 e1 db d0 03 01 1c 18 17 1e 14 08 04 17 03 0b 0b 00 01 11 fc 25 fa 14 f0 fa 26 17 fe e8 00 fb f7 e6 13 12 fc ed f8 00 08
14 20 20 2c 27 e9 f3 1a ef db 06 ec 1b 16 f5 f5 f9 d0 cc d7 fb 17 00 ef 19 18 1e 1c f8 f6 e6 f7 35 ee f0 f7 08 ef 2c ef 12 0f f2 fa f0 01 08 f1
01 12 ea e7 e6 f3 e0 b3 00 01 12 e9 ed 12 1f 29 f0 02 08 39 fc 08 0e 25 18 05 fe 00 2c 04 0c ee 0d e3 db 21 1b f1 fb 03 15 0c 23 f8 00 fb 0b 05
18 2c 18 e7 06 ff 0b dc f6 17 29 2a ed e6 f6 f9 f1 e2 f3 ff e4 e2 0f 23 e1 ea 08 09 e5 05 0e 0d f4 d1 bc 1a f4 c1 c5 09 0d ef 09 11 1c 10 0b 0d
f0 d3 e1 18 17 23 0b 0d 0f f1 0f 0c 13 0b 00 fb 15 1c 2b 05 1e 17 02 00 13 e9 f3 29 fd e2 de e8 11 fe 09 de fc 0c 39 04 0e f6 d7 ea c7 01 00 00
0e ff fa 07 f6 ee 0d 17 28 2a f6 e3 fa d0 0b 10 e3 0f ff 14 f9 0c 03 15 ef f8 f4 12 d4 ff 07 05 f7 14 17 19 32 12 e9 04 00 19 ef 04 0b ed 00 ec
16 28 0e fb f4 e9 0e 0d d1 c9 f8 06 15 24 ed 02 f3 0a 1c 08 ce 0a 07 0d 00 1f fd ca f2 13 e3 be c4 e0 09 01 01 16 1e fa 0a 0f 37 fc 03 00 f1 09
